<pad>	0
<unk>	0
<s>	0
</s>	0
<2np>	0
<2mgr>	0
▁।	-0
▁म	-1
ले	-2
▁क	-3
ला	-4
▁स	-5
्य	-6
▁प	-7
▁ह	-8
न्	-9
को	-10
▁ब	-11
▁भ	-12
▁न	-13
के	-14
ाङ	-15
रा	-16
▁ड	-17
▁ज	-18
▁मा	-19
र्	-20
हा	-21
▁छ	-22
मा	-23
▁'	-24
▁ङ	-25
▁ग	-26
स्	-27
या	-28
▁द	-29
क्	-30
▁आ	-31
ने	-32
री	-33
▁हो	-34
▁त	-35
▁च	-36
्या	-37
यो	-38
▁अ	-39
▁,	-40
ाट	-41
नी	-42
▁ले	-43
्यो	-44
्र	-45
ेर	-46
▁ख	-47
डी	-48
▁ल	-49
मी	-50
▁र	-51
ान्	-52
नि	-53
ार	-54
ना	-55
▁कु	-56
लाई	-57
▁ङा	-58
▁ला	-59
▁थ	-60
▁डे	-61
्म	-62
हि	-63
सा	-64
▁?	-65
टा	-66
का	-67
नु	-68
▁रा	-69
▁मी	-70
▁इ	-71
ाँ	-72
हु	-73
▁उ	-74
▁.	-75
ल्	-76
नाङ	-77
▁व	-78
रु	-79
ही	-80
▁पा	-81
▁का	-82
हे	-83
▁होस	-84
्च	-85
ाज	-86
▁जाट	-87
▁फ	-88
▁सु	-89
▁थि	-90
▁छान्	-91
▁पनि	-92
▁सा	-93
ठा	-94
ता	-95
▁घ	-96
▁कुरा	-97
▁हु	-98
त्र	-99
▁नु	-100
ति	-101
▁ना	-102
उँ	-103
ट्	-104
▁लेया	-105
▁बु	-106
मन	-107
जा	-108
दै	-109
▁ए	-110
▁झ	-111
ली	-112
▁य	-113
म्	-114
लो	-115
ङ्	-116
हरु	-117
▁दि	-118
एको	-119
ैले	-120
सी	-121
से	-122
न्छ	-123
हो	-124
▁के	-125
▁ही	-126
▁दाज	-127
वा	-128
▁छो	-129
▁ट	-130
▁भने	-131
पा	-132
हुँ	-133
ेको	-134
▁बा	-135
लाङ	-136
▁ढ	-137
सु	-138
▁भा	-139
ोइ	-140
▁से	-141
र्मी	-142
▁थियो	-143
रि	-144
▁ति	-145
स्त	-146
ह्	-147
▁जा	-148
▁हा	-149
▁नुहुँ	-150
माङ	-151
▁त्य	-152
▁खा	-153
म्म	-154
लाक	-155
कु	-156
दा	-157
▁बे	-158
▁राहा	-159
्हा	-160
▁भन्	-161
▁गा	-162
▁भयो	-163
▁गर्	-164
▁घर	-165
गा	-166
▁सो	-167
▁पु	-168
▁मैले	-169
▁काट	-170
▁ङै	-171
लि	-172
▁दु	-173
▁टा	-174
▁या	-175
▁लाग	-176
▁दे	-177
छि	-178
▁मात्र	-179
▁ठा	-180
▁मलाई	-181
नो	-182
▁भए	-183
▁मे	-184
▁!	-185
▁पर्	-186
▁वि	-187
्यु	-188
ेरो	-189
▁गर	-190
▁जाट्	-191
टी	-192
▁ध	-193
▁ङौ	-194
प्	-195
▁ङाके	-196
डा	-197
ैडी	-198
▁डेया	-199
खा	-200
▁ठ	-201
▁न्	-202
की	-203
वि	-204
▁मन	-205
▁था	-206
▁कि	-207
सो	-208
त्	-209
▁बि	-210
▁नि	-211
कै	-212
एर	-213
▁ओ	-214
नीङ	-215
म्र	-216
▁सम	-217
▁पो	-218
थी	-219
▁खु	-220
▁नै	-221
▁ङु	-222
▁मेरो	-223
▁को	-224
▁एक	-225
▁बुढ	-226
ान्छ	-227
▁आले	-228
▁ज्या	-229
▁कवि	-230
▁होच	-231
▁भर्मी	-232
रो	-233
▁अनी	-234
बा	-235
रे	-236
▁दाजी	-237
▁बी	-238
स्के	-239
ाँहि	-240
स्म	-241
▁इसे	-242
▁छा	-243
▁यो	-244
▁सि	-245
▁दाज्यु	-246
ँग	-247
▁माझ	-248
▁हि	-249
▁पढ	-250
▁डेनाङ	-251
▁छान्हा	-252
आङ	-253
ैं	-254
म्रो	-255
▁तिमी	-256
▁डेम	-257
▁समय	-258
साङ	-259
क्क	-260
स्च	-261
▁जी	-262
▁श	-263
▁छान्ह्	-264
▁होसे	-265
▁कविता	-266
▁उस	-267
▁थिए	-268
हिले	-269
▁काम	-270
▁प्र	-271
्न	-272
▁डा	-273
▁ल्	-274
▁बज	-275
▁लख	-276
फा	-277
▁डु	-278
्ने	-279
▁चि	-280
▁डी	-281
न्छे	-282
▁बेला	-283
▁स्	-284
थ्यो	-285
▁देख	-286
क्च	-287
ेट	-288
▁न्ही	-289
▁माछ	-290
िन	-291
▁रहे	-292
▁लैडी	-293
▁चाँहि	-294
्हो	-295
▁ङो	-296
न्च	-297
▁फु	-298
क्के	-299
▁त्यो	-300
▁याहा	-301
ैन	-302
हाँ	-303
ह्च	-304
▁खो	-305
▁माझा	-306
▁गाउँ	-307
▁इम	-308
▁मीमन	-309
▁मान्छे	-310
▁मोइ	-311
▁कान्छ	-312
ङ्घ	-313
ाङ्	-314
▁आँ	-315
▁सी	-316
स्तो	-317
▁माले	-318
▁जाट्के	-319
▁लाङ्घ	-320
ती	-321
ेँ	-322
▁लेख	-323
पु	-324
क्ष	-325
मि	-326
▁बो	-327
▁हीड	-328
ह्म	-329
▁विद	-330
बु	-331
▁न्हीस	-332
ौं	-333
▁सब	-334
्याक	-335
▁रहेछ	-336
▁साथी	-337
▁मात्रै	-338
▁छु	-339
ट्ट	-340
▁लेसा	-341
सि	-342
▁भनेर	-343
▁लाफा	-344
हर	-345
▁जु	-346
जना	-347
▁इमाङ	-348
▁माछान्	-349
उने	-350
▁व्हा	-351
▁विद्या	-352
▁अब	-353
▁बाज	-354
▁जाट्म	-355
सँग	-356
▁री	-357
▁सम्	-358
▁मीमी	-359
लु	-360
न्द	-361
म्मै	-362
▁छैन	-363
▁परी	-364
▁भएको	-365
पछि	-366
जु	-367
▁मु	-368
▁दुई	-369
▁त्यस	-370
जो	-371
सम्म	-372
रहे	-373
▁आमा	-374
टो	-375
बाट	-376
▁माया	-377
▁जम्मै	-378
क्म	-379
▁नाम	-380
▁गो	-381
▁डेच	-382
ेरै	-383
▁जि	-384
▁खुसी	-385
▁नुहुँआ	-386
नको	-387
ाँक्	-388
▁खे	-389
गर	-390
काङ	-391
▁चा	-392
भा	-393
कठा	-394
▁आफ	-395
▁छे	-396
▁जो	-397
▁ता	-398
▁नाङ	-399
▁भन्नु	-400
थि	-401
▁गी	-402
▁रे	-403
▁ससु	-404
▁सेन	-405
टु	-406
दी	-407
▁ने	-408
▁सबै	-409
प्याक	-410
ग्	-411
लेसा	-412
▁बुढा	-413
▁ससुरा	-414
▁छोरी	-415
लय	-416
▁कस	-417
कुङ	-418
▁झाँक्	-419
▁उनी	-420
▁चु	-421
▁पर	-422
▁हुन्छ	-423
▁कार	-424
▁पछि	-425
▁म्हा	-426
▁ल्हे	-427
▁पि	-428
▁भि	-429
▁भाइ	-430
▁केहि	-431
▁लाग्यो	-432
डि	-433
▁होट	-434
▁हुँ	-435
इन	-436
ङ्च	-437
▁ची	-438
क्सी	-439
नै	-440
▁गु	-441
▁लो	-442
▁हामी	-443
▁झाँक्री	-444
दैन	-445
मीजा	-446
्रा	-447
▁छी	-448
न्डी	-449
हाले	-450
▁अर्	-451
▁भे	-452
टक	-453
उनु	-454
हरू	-455
▁लेन्	-456
डे	-457
▁बोइ	-458
▁होला	-459
बी	-460
याँ	-461
▁भन	-462
▁की	-463
ाँडा	-464
▁माय	-465
▁हेर	-466
▁जाटा	-467
कोके	-468
ल्ला	-469
▁मीमीक	-470
▁हे	-471
▁दिन	-472
तिर	-473
▁डो	-474
▁ओला	-475
▁ठाउँ	-476
▁लेन्जा	-477
▁नुहुँके	-478
सार	-479
स्ट	-480
▁पे	-481
▁बस	-482
▁भो	-483
▁मि	-484
▁सं	-485
▁है	-486
▁बुबा	-487
दे	-488
ङ्ग	-489
िका	-490
▁रो	-491
ल्यो	-492
▁कान	-493
▁थाहा	-494
▁रक्सी	-495
र्डी	-496
▁अरु	-497
▁डाङ	-498
मे	-499
डीक	-500
सके	-501
▁भया	-502
▁छान्ह्ले	-503
कार	-504
राङ	-505
▁आइ	-506
▁रु	-507
ेमाङ	-508
▁आर्मी	-509
▁होच्य	-510
▁माय्हो	-511
▁विद्यालय	-512
उन	-513
पाई	-514
▁एउ	-515
▁डै	-516
▁राख	-517
▁नुङ्	-518
▁होच्यो	-519
कि	-520
▁गरि	-521
▁घरमा	-522
▁न्हु	-523
▁म्या	-524
▁भन्ने	-525
▁ती	-526
▁वा	-527
▁सम्झ	-528
▁छान्ह्म	-529
▁आज	-530
▁पत्र	-531
केर	-532
▁बुढी	-533
ड्	-534
हेच	-535
▁मगर	-536
▁याक	-537
हरुले	-538
▁कान्छा	-539
छु	-540
▁बस्	-541
▁धेरै	-542
▁ढेर	-543
▁पढी	-544
▁ठाहा	-545
▁पेमा	-546
▁सासु	-547
मै	-548
न्न	-549
▁म्	-550
दि	-551
्व	-552
ल्म	-553
हाङ	-554
ाँच	-555
▁पटक	-556
▁मार्	-557
दार	-558
▁ठू	-559
▁माज	-560
▁रात	-561
▁नानी	-562
ीङ	-563
▁फे	-564
भ्या	-565
स्तै	-566
▁जीव	-567
रहेको	-568
▁नयाँ	-569
▁स्या	-570
▁छीनीङ	-571
था	-572
क्र	-573
▁आयो	-574
▁आर्	-575
▁एउटा	-576
▁दिदी	-577
पि	-578
याङ	-579
राहा	-580
▁भाग	-581
▁पानी	-582
▁चे	-583
▁लाम	-584
▁छोरा	-585
▁होसको	-586
▁डेयाको	-587
हार	-588
ट्री	-589
▁अनु	-590
▁गयो	-591
▁आँखा	-592
▁कार्य	-593
चा	-594
▁बज्य	-595
▁मामा	-596
▁राम्रो	-597
एँ	-598
त्य	-599
स्ले	-600
▁सोम	-601
▁उसले	-602
▁च्या	-603
▁थिएँ	-604
▁लानि	-605
▁करा	-606
▁सोध	-607
▁ठाला	-608
▁तपाई	-609
▁दिनि	-610
▁ऊ	-611
्वा	-612
▁यस	-613
▁ज्याके	-614
लमा	-615
▁गे	-616
▁पी	-617
▁खोज	-618
▁मीटा	-619
▁भन्यो	-620
▁माहाले	-621
▁लैडीसा	-622
ष्	-623
ोला	-624
▁माइ	-625
▁साहि	-626
न्थ्यो	-627
▁माझामीजा	-628
हुट	-629
▁कर	-630
उँदै	-631
ह्ले	-632
▁अगा	-633
▁फर्	-634
▁गर्न	-635
▁डीन्	-636
▁बाजी	-637
▁पासाङ	-638
▁म्यार	-639
िक	-640
ोर्	-641
▁लि	-642
▁लु	-643
▁जना	-644
▁हात	-645
▁त्यही	-646
▁राहाच	-647
भि	-648
▁स्व	-649
▁म्यारमी	-650
खि	-651
रै	-652
टार	-653
नले	-654
न्त	-655
▁डू	-656
▁सह	-657
्याङ	-658
ीट्री	-659
▁गर्ने	-660
▁लाङ्घाङ	-661
लौ	-662
लेर	-663
▁रि	-664
▁दाजीय	-665
▁पुस्त	-666
▁पत्रिका	-667
ओला	-668
ठमा	-669
नाम	-670
प्च	-671
ाँड	-672
▁ढु	-673
▁सर	-674
▁परि	-675
▁पर्छ	-676
▁मीजा	-677
▁कहिले	-678
▁गर्यो	-679
▁कार्यक्र	-680
ौन	-681
▁छि	-682
▁नी	-683
स्मन	-684
हिनी	-685
▁उसको	-686
▁जिमि	-687
▁जीवन	-688
▁माथि	-689
▁गर्नु	-690
▁मीहुट	-691
▁छान्ह्च	-692
खु	-693
ेरि	-694
▁अस्	-695
▁मनमा	-696
ण्	-697
ते	-698
▁भु	-699
क्ले	-700
▁थिएन	-701
▁नाको	-702
▁बाहु	-703
▁होइन	-704
▁जस्तो	-705
▁ढेमाङ	-706
▁पर्ले	-707
▁पुस्तक	-708
गी	-709
रमा	-710
ाँस	-711
▁कम	-712
▁क्	-713
प्डी	-714
हारी	-715
▁पुग	-716
▁हिँ	-717
▁करङ्च	-718
▁जाट्च	-719
▁जिमिदार	-720
दो	-721
पी	-722
ाटो	-723
▁टु	-724
▁पै	-725
ट्टी	-726
▁भएन	-727
▁हेर्	-728
▁सेहेच	-729
▁साहित्य	-730
▁दाज्युले	-731
▁आइपु	-732
▁जाने	-733
▁बाबु	-734
▁हुने	-735
▁न्हुनीङ	-736
लै	-737
्नो	-738
▁भात	-739
▁वर्	-740
▁सक्	-741
▁समा	-742
▁कोहि	-743
▁खाना	-744
▁मानि	-745
स्क	-746
▁झा	-747
▁टी	-748
▁नभ	-749
▁पही	-750
▁सास	-751
▁सुय	-752
र्लाक	-753
▁यहाँ	-754
▁भनेको	-755
▁कान्छी	-756
▁गाउँमा	-757
धा	-758
वाङ	-759
ाटा	-760
▁शि	-761
र्थी	-762
▁अलि	-763
▁किन	-764
▁गरी	-765
▁भेट	-766
▁मीम	-767
▁यौन	-768
▁लगा	-769
हरुको	-770
▁इलाङ	-771
▁बाजे	-772
▁अहिले	-773
▁बेलाङ	-774
एन	-775
मु	-776
ाट्	-777
▁कति	-778
जे	-779
बीक	-780
▁सौ	-781
▁फेरी	-782
▁माडी	-783
▁म्हे	-784
▁पर्यो	-785
बे	-786
षा	-787
भयो	-788
रको	-789
हीन	-790
▁पार	-791
▁इनाङ	-792
▁पैसा	-793
▁चो	-794
र्हा	-795
▁कठा	-796
▁छन्	-797
▁बना	-798
▁गरेर	-799
▁नेपा	-800
हरुलाई	-801
▁होलाङ	-802
डाङ	-803
प्र	-804
ल्ट	-805
्याच	-806
▁झैं	-807
लेयाङ	-808
▁टाहा	-809
▁फेरि	-810
▁मेनो	-811
▁काठमा	-812
▁भन्दा	-813
▁लाङ्घा	-814
खो	-815
मो	-816
क्त	-817
नमा	-818
▁नो	-819
▁इन्च	-820
▁न्या	-821
▁गरेको	-822
▁मानिस	-823
▁शिक्ष	-824
▁सोनाम	-825
▁छान्ह्के	-826
पो	-827
च्च	-828
दिन	-829
▁मो	-830
प्के	-831
▁कुकु	-832
▁बारी	-833
▁वर्ष	-834
▁हुनु	-835
▁आफ्नो	-836
▁लेनाङ	-837
▁ङालेयाङ	-838
▁भर्मीको	-839
▁कार्यक्रम	-840
डु	-841
ढा	-842
ब्	-843
ट्च	-844
नुङ	-845
मोइ	-846
▁घु	-847
▁मै	-848
ल्मो	-849
स्टर	-850
ैंसी	-851
▁बीच	-852
▁काठमाड	-853
▁थाल्यो	-854
गे	-855
डीम	-856
न्ट	-857
्नु	-858
देखि	-859
नीको	-860
ह्के	-861
▁चुप	-862
▁जन्	-863
▁आएको	-864
▁गीना	-865
▁ल्या	-866
▁कुडीक	-867
▁पर्ने	-868
▁पहिले	-869
▁बेलामा	-870
▁मालेया	-871
बर	-872
लन	-873
नेर	-874
▁टो	-875
▁पास	-876
▁बुझ	-877
सकेको	-878
▁अस्प	-879
▁जानु	-880
▁डुखा	-881
▁बहिनी	-882
▁माछान्हा	-883
गु	-884
गो	-885
ची	-886
टे	-887
ेश	-888
ङ्गा	-889
छ्या	-890
व्हा	-891
▁महि	-892
▁सके	-893
▁ख्यो	-894
▁डेके	-895
▁डाँडा	-896
▁माछान्ह्ले	-897
ट्म	-898
म्प	-899
न्ने	-900
बेला	-901
लेको	-902
▁अनि	-903
▁क्ष	-904
▁गरे	-905
▁ङुआ	-906
▁नुङ	-907
▁बसे	-908
▁एकजना	-909
▁जस्तै	-910
▁भैंसी	-911
▁अनुहार	-912
▁जाट्मन	-913
▁बुहारी	-914
▁म्हाकाङ	-915
▁विद्यार्थी	-916
आमा	-917
मान	-918
लाप	-919
लाल	-920
डीसा	-921
▁देखि	-922
▁भेला	-923
▁सुको	-924
▁अर्को	-925
▁कुकुर	-926
▁यस्तो	-927
▁माडीन्	-928
ङु	-929
तो	-930
द्	-931
ईन्	-932
माइ	-933
ल्न	-934
वार	-935
हान	-936
्यै	-937
▁ठो	-938
लाको	-939
▁छोड	-940
स्नाङ	-941
▁चाहि	-942
▁मासु	-943
▁स्वा	-944
▁हीके	-945
▁कसैले	-946
▁त्यति	-947
▁परीसा	-948
▁साँहि	-949
▁हुँदैन	-950
▁काठमाडौं	-951
एछ	-952
त्त	-953
पर्	-954
माई	-955
ल्के	-956
सँगै	-957
▁चीऊ	-958
▁लेच	-959
▁सँग	-960
हुन्छ	-961
▁आँसु	-962
▁कहाँ	-963
▁मासे	-964
▁य्हो	-965
▁सिजो	-966
▁कुलाक	-967
▁जान्छ	-968
प्म	-969
रीङ	-970
हीङ	-971
क्षा	-972
▁तीन	-973
▁भनि	-974
▁यति	-975
▁हरि	-976
▁हरी	-977
▁घाँस	-978
▁डाङ्	-979
▁होस्	-980
▁पहीला	-981
▁भाँडा	-982
▁टाराहा	-983
ःख	-984
जी	-985
ञ्	-986
ढी	-987
ण्ड	-988
▁अघ	-989
▁धन	-990
हीना	-991
▁क्षे	-992
▁ठूलो	-993
▁दुःख	-994
▁होसके	-995
▁हाम्रो	-996
▁आर्मीटा	-997
▁जाट्नाङ	-998
▁म्यारमीन	-999
चो	-1000
किन	-1001
र्म	-1002
लेच	-1003
कारी	-1004
क्का	-1005
त्ति	-1006
पक्क	-1007
▁आउँ	-1008
▁पाइ	-1009
▁माई	-1010
▁बाटो	-1011
▁कानुङ	-1012
▁नाबीक	-1013
▁तिमीले	-1014
▁तिम्रो	-1015
▁भीट्री	-1016
▁मीमीकडी	-1017
कर	-1018
ठो	-1019
ेम	-1020
ेरे	-1021
्रो	-1022
▁जे	-1023
▁दश	-1024
ग्यो	-1025
ट्टा	-1026
मैया	-1027
▁कथा	-1028
▁ङुच	-1029
▁केही	-1030
▁गएको	-1031
▁र्हा	-1032
▁लागि	-1033
▁अगाडी	-1034
▁ओछ्या	-1035
▁तपाईं	-1036
▁देखेर	-1037
▁भित्र	-1038
▁रीक्च	-1039
च्	-1040
छा	-1041
ूल	-1042
ाटी	-1043
▁दा	-1044
न्दा	-1045
▁क्र	-1046
▁गोरा	-1047
▁ग्वा	-1048
▁ङुके	-1049
▁दिनु	-1050
▁ग्याच	-1051
▁पीहीन	-1052
▁म्हार	-1053
▁माय्होका	-1054
▁हुन्थ्यो	-1055
सन	-1056
ेन	-1057
▁औ	-1058
जुर	-1059
ध्य	-1060
भरी	-1061
र्च	-1062
ल्च	-1063
श्व	-1064
▁अँ	-1065
ज्या	-1066
नेको	-1067
होस्	-1068
▁कसै	-1069
▁भएछ	-1070
▁सेच	-1071
▁किता	-1072
▁चिना	-1073
▁तामाङ	-1074
▁त्यसो	-1075
▁याहाके	-1076
बि	-1077
टाङ	-1078
ूर्	-1079
▁आए	-1080
▁आव	-1081
▁उठ	-1082
ट्के	-1083
ट्टि	-1084
नाली	-1085
ल्ने	-1086
ल्हे	-1087
▁नपा	-1088
▁बसि	-1089
▁बाख	-1090
▁सुर	-1091
भित्र	-1092
▁कुखु	-1093
▁देखा	-1094
▁रातो	-1095
▁लाग्	-1096
▁सेनर	-1097
▁गर्दा	-1098
▁हुँदै	-1099
▁छाप्डी	-1100
▁त्यहाँ	-1101
▁लाफाको	-1102
ङा	-1103
बो	-1104
भर	-1105
वी	-1106
इन्	-1107
ब्द	-1108
्दै	-1109
्रि	-1110
▁अल	-1111
▁	-1112
ा	-1113
्	-1114
न	-1115
े	-1116
क	-1117
र	-1118
म	-1119
ो	-1120
ल	-1121
ी	-1122
स	-1123
ह	-1124
ु	-1125
य	-1126
।	-1127
ि	-1128
ङ	-1129
प	-1130
ट	-1131
ड	-1132
ज	-1133
त	-1134
ब	-1135
च	-1136
ै	-1137
छ	-1138
भ	-1139
ग	-1140
द	-1141
ँ	-1142
ख	-1143
'	-1144
इ	-1145
आ	-1146
व	-1147
उ	-1148
ए	-1149
थ	-1150
अ	-1151
ई	-1152
,	-1153
ठ	-1154
ौ	-1155
फ	-1156
ढ	-1157
?	-1158
झ	-1159
घ	-1160
ओ	-1161
.	-1162
ू	-1163
ध	-1164
ं	-1165
श	-1166
ष	-1167
ण	-1168
!	-1169
ऊ	-1170
-	-1171
ञ	-1172
ृ	-1173
ः	-1174
औ	-1175
"	-1176
n	-1177
२	-1178
ऋ	-1179
ऐ	-1180
५	-1181
१	-1182
(	-1183
)	-1184
a	-1185
ऽ	-1186
३	-1187
९	-1188
/	-1189
०	-1190
६	-1191
+	-1192
]	-1193
